<?xml version="1.0"?>
<opencv_storage>
<cascade>
  <stageType>BOOST</stageType>
  <featureType>LBP</featureType>
  <height>16</height>
  <width>16</width>
  <stageParams>
    <boostType>GAB</boostType>
    <minHitRate>9.9900001287460327e-01</minHitRate>
    <maxFalseAlarm>5.0000000000000000e-01</maxFalseAlarm>
    <weightTrimRate>9.4999999999999996e-01</weightTrimRate>
    <maxDepth>1</maxDepth>
    <maxWeakCount>100</maxWeakCount></stageParams>
  <featureParams>
    <maxCatCount>256</maxCatCount>
    <featSize>1</featSize></featureParams>
  <stageNum>20</stageNum>
  <stages>
    <!-- stage 0 -->
    <_>
      <maxWeakCount>1</maxWeakCount>
      <stageThreshold>9.8019802570343018e-01</stageThreshold>
      <weakClassifiers>
        <_>
          <internalNodes>
            0 -1 10 -796802917 1962999809 1 1897988096 2186 -2012741632
            -2147450741 167969163</internalNodes>
          <leafValues>
            -1. 9.8019802570343018e-01</leafValues></_></weakClassifiers></_>
    <!-- stage 1 -->
    <_>
      <maxWeakCount>1</maxWeakCount>
      <stageThreshold>9.4174754619598389e-01</stageThreshold>
      <weakClassifiers>
        <_>
          <internalNodes>
            0 -1 9 -1727671811 -787902415 268501341 -788266747 67338417
            -1207894015 -2139062264 -81056870</internalNodes>
          <leafValues>
            -1. 9.4174754619598389e-01</leafValues></_></weakClassifiers></_>
    <!-- stage 2 -->
    <_>
      <maxWeakCount>2</maxWeakCount>
      <stageThreshold>-1.7680072784423828e-01</stageThreshold>
      <weakClassifiers>
        <_>
          <internalNodes>
            0 -1 7 1463880089 864370961 1081653 -712425456 -2138990181
            -1684405245 -2147415911 -104087542</internalNodes>
          <leafValues>
            -9.7927463054656982e-01 8.3177572488784790e-01</leafValues></_>
        <_>
          <internalNodes>
            0 -1 22 -1039465325 -2126446592 536870993 -775729077
            -2013233150 -1138688000 -2122282832 -81098622</internalNodes>
          <leafValues>
            -1. 8.0247390270233154e-01</leafValues></_></weakClassifiers></_>
    <!-- stage 3 -->
    <_>
      <maxWeakCount>2</maxWeakCount>
      <stageThreshold>-9.7950778901576996e-02</stageThreshold>
      <weakClassifiers>
        <_>
          <internalNodes>
            0 -1 26 -1064840577 411271170 159648273 -1424127913 196763
            -620658424 814203681 -272904818</internalNodes>
          <leafValues>
            -9.5939087867736816e-01 8.6407768726348877e-01</leafValues></_>
        <_>
          <internalNodes>
            0 -1 6 1399185201 -645790135 1078067267 993067009
            -2090547045 -391607803 1409482778 -6036867</internalNodes>
          <leafValues>
            -9.6202844381332397e-01 8.6904418468475342e-01</leafValues></_></weakClassifiers></_>
    <!-- stage 4 -->
    <_>
      <maxWeakCount>2</maxWeakCount>
      <stageThreshold>-7.6281554996967316e-02</stageThreshold>
      <weakClassifiers>
        <_>
          <internalNodes>
            0 -1 24 1082868499 190499 -1732034304 -1050541662 4280641
            134529057 -533102333 -436213853</internalNodes>
          <leafValues>
            -9.8974359035491943e-01 8.8571429252624512e-01</leafValues></_>
        <_>
          <internalNodes>
            0 -1 2 -685275209 604504263 -921632756 -527988433 268534443
            -1560035237 -463133684 -236597247</internalNodes>
          <leafValues>
            -9.6199584007263184e-01 9.3142122030258179e-01</leafValues></_></weakClassifiers></_>
    <!-- stage 5 -->
    <_>
      <maxWeakCount>1</maxWeakCount>
      <stageThreshold>9.2307692766189575e-01</stageThreshold>
      <weakClassifiers>
        <_>
          <internalNodes>
            0 -1 3 -533248153 -801025789 537329931 -1548767218
            -2119097641 -1073569695 -259022418 -239999678</internalNodes>
          <leafValues>
            -1. 9.2307692766189575e-01</leafValues></_></weakClassifiers></_>
    <!-- stage 6 -->
    <_>
      <maxWeakCount>2</maxWeakCount>
      <stageThreshold>-7.9360142350196838e-02</stageThreshold>
      <weakClassifiers>
        <_>
          <internalNodes>
            0 -1 19 287821311 808034688 65697 -1862164415 1095092295
            -2134867893 453740699 -928987062</internalNodes>
          <leafValues>
            -9.4999998807907104e-01 8.9999997615814209e-01</leafValues></_>
        <_>
          <internalNodes>
            0 -1 32 -213405465 -1325105131 -1056438843 -1927967485
            -803682101 -2145091584 18690 -393247842</internalNodes>
          <leafValues>
            -9.7145259380340576e-01 8.7063986063003540e-01</leafValues></_></weakClassifiers></_>
    <!-- stage 7 -->
    <_>
      <maxWeakCount>2</maxWeakCount>
      <stageThreshold>-2.0318955183029175e-01</stageThreshold>
      <weakClassifiers>
        <_>
          <internalNodes>
            0 -1 4 1092015063 -871366077 -805270249 -1052751872
            -1072463383 -805271417 -158692855 -770077910</internalNodes>
          <leafValues>
            -9.6825397014617920e-01 7.4774771928787231e-01</leafValues></_>
        <_>
          <internalNodes>
            0 -1 7 -1298884417 1394153486 -1727983026 -648896447
            -517248817 -1442311486 1073865417 -299880320</internalNodes>
          <leafValues>
            -9.5093727111816406e-01 7.8877967596054077e-01</leafValues></_></weakClassifiers></_>
    <!-- stage 8 -->
    <_>
      <maxWeakCount>2</maxWeakCount>
      <stageThreshold>-2.7696731686592102e-01</stageThreshold>
      <weakClassifiers>
        <_>
          <internalNodes>
            0 -1 14 1459876879 -788168565 411161549 -1710030835
            1914235307 1880113160 192941771 -70508147</internalNodes>
          <leafValues>
            -9.8907101154327393e-01 6.9230771064758301e-01</leafValues></_>
        <_>
          <internalNodes>
            0 -1 29 -1001365038 -673890237 352340225 -1861910319
            -1342176245 -1452785663 -1736408952 -103831325</internalNodes>
          <leafValues>
            -9.6927499771118164e-01 7.4424064159393311e-01</leafValues></_></weakClassifiers></_>
    <!-- stage 9 -->
    <_>
      <maxWeakCount>2</maxWeakCount>
      <stageThreshold>-2.1623916923999786e-01</stageThreshold>
      <weakClassifiers>
        <_>
          <internalNodes>
            0 -1 5 -1068247727 1346404357 272744449 1384218754
            -1207910007 -1744830435 -532408021 -611326449</internalNodes>
          <leafValues>
            -9.6842104196548462e-01 7.6363635063171387e-01</leafValues></_>
        <_>
          <internalNodes>
            0 -1 28 -1606168169 -736739199 537498971 -668991357
            -2147422742 -1912602223 -838815029 -1157521262</internalNodes>
          <leafValues>
            -9.7987550497055054e-01 7.5703358650207520e-01</leafValues></_></weakClassifiers></_>
    <!-- stage 10 -->
    <_>
      <maxWeakCount>2</maxWeakCount>
      <stageThreshold>-1.7636221647262573e-01</stageThreshold>
      <weakClassifiers>
        <_>
          <internalNodes>
            0 -1 16 1091294229 -100073471 268698077 1090912646
            -737967437 -1333260111 838898586 -318177142</internalNodes>
          <leafValues>
            -9.6825397014617920e-01 7.4774771928787231e-01</leafValues></_>
        <_>
          <internalNodes>
            0 -1 21 -179844705 -1683783663 16916609 50495489 -1475333990
            -1333788544 -1924167284 -208698737</internalNodes>
          <leafValues>
            -9.2410993576049805e-01 8.4589570760726929e-01</leafValues></_></weakClassifiers></_>
    <!-- stage 11 -->
    <_>
      <maxWeakCount>2</maxWeakCount>
      <stageThreshold>-1.7122220993041992e-01</stageThreshold>
      <weakClassifiers>
        <_>
          <internalNodes>
            0 -1 1 1889087898 1573781646 1073742315 -600977342 151685322
            -1694498420 1321277657 -543845729</internalNodes>
          <leafValues>
            -9.0862941741943359e-01 7.6699030399322510e-01</leafValues></_>
        <_>
          <internalNodes>
            0 -1 23 -796708531 -1795018495 419524624 -1827862272
            1610639569 -2147450860 -2130476659 -1687453654</internalNodes>
          <leafValues>
            -9.3198877573013306e-01 7.3740720748901367e-01</leafValues></_></weakClassifiers></_>
    <!-- stage 12 -->
    <_>
      <maxWeakCount>2</maxWeakCount>
      <stageThreshold>-2.0703588426113129e-01</stageThreshold>
      <weakClassifiers>
        <_>
          <internalNodes>
            0 -1 17 1100730845 1028796434 -1442573935 -41532288
            1103462794 -214907752 -1577017199 -1618507088</internalNodes>
          <leafValues>
            -9.2857140302658081e-01 7.8846156597137451e-01</leafValues></_>
        <_>
          <internalNodes>
            0 -1 30 1247134493 -773488253 -1878978531 134283264
            -939499511 -725483512 -2147446646 -1127743478</internalNodes>
          <leafValues>
            -9.6995025873184204e-01 7.2153556346893311e-01</leafValues></_></weakClassifiers></_>
    <!-- stage 13 -->
    <_>
      <maxWeakCount>2</maxWeakCount>
      <stageThreshold>-1.3534431159496307e-01</stageThreshold>
      <weakClassifiers>
        <_>
          <internalNodes>
            0 -1 15 -533475017 -2127420917 -2130607355 -145063424
            577366955 -1574403456 2032049345 -394010431</internalNodes>
          <leafValues>
            -9.3908631801605225e-01 8.2524269819259644e-01</leafValues></_>
        <_>
          <internalNodes>
            0 -1 19 1895895455 1464275139 -1995300846 -125238769
            273187789 -172457277 -524148696 -146242909</internalNodes>
          <leafValues>
            -9.4284284114837646e-01 8.0374199151992798e-01</leafValues></_></weakClassifiers></_>
    <!-- stage 14 -->
    <_>
      <maxWeakCount>2</maxWeakCount>
      <stageThreshold>-2.7743282914161682e-01</stageThreshold>
      <weakClassifiers>
        <_>
          <internalNodes>
            0 -1 11 -804970017 2035549291 1098993736 -917952292
            -787991631 -2147418093 692912808 -97942968</internalNodes>
          <leafValues>
            -9.8918920755386353e-01 7.2173911333084106e-01</leafValues></_>
        <_>
          <internalNodes>
            0 -1 31 -217853173 -1073041344 32896 -1715305974 -1686027646
            196608 -2079944574 -783826680</internalNodes>
          <leafValues>
            -1. 7.1175634860992432e-01</leafValues></_></weakClassifiers></_>
    <!-- stage 15 -->
    <_>
      <maxWeakCount>2</maxWeakCount>
      <stageThreshold>-3.1342732906341553e-01</stageThreshold>
      <weakClassifiers>
        <_>
          <internalNodes>
            0 -1 0 -1983863989 -796290766 18481163 -236793785 146817195
            -2134834149 -1050670789 -388053441</internalNodes>
          <leafValues>
            -9.5652174949645996e-01 6.5517240762710571e-01</leafValues></_>
        <_>
          <internalNodes>
            0 -1 27 -489633257 -1052531961 5087365 1094780931 -989683198
            604284932 -402095607 -342886009</internalNodes>
          <leafValues>
            -9.6859973669052124e-01 7.0917397737503052e-01</leafValues></_></weakClassifiers></_>
    <!-- stage 16 -->
    <_>
      <maxWeakCount>2</maxWeakCount>
      <stageThreshold>-2.6257228851318359e-01</stageThreshold>
      <weakClassifiers>
        <_>
          <internalNodes>
            0 -1 12 -1055796865 -850395135 268697946 -775864127 35045
            8388608 67469516 -304150392</internalNodes>
          <leafValues>
            -9.6791446208953857e-01 7.1681416034698486e-01</leafValues></_>
        <_>
          <internalNodes>
            0 -1 8 -797450027 -846183933 536895529 -1017011360
            -805273201 536871467 -938126166 -1460847333</internalNodes>
          <leafValues>
            -9.7938644886016846e-01 7.1868425607681274e-01</leafValues></_></weakClassifiers></_>
    <!-- stage 17 -->
    <_>
      <maxWeakCount>2</maxWeakCount>
      <stageThreshold>-2.9554134607315063e-01</stageThreshold>
      <weakClassifiers>
        <_>
          <internalNodes>
            0 -1 20 1121436127 1393230083 83886149 1937867013 -259865117
            -1742625788 -1610280814 -628981622</internalNodes>
          <leafValues>
            -9.3650794029235840e-01 6.9369369745254517e-01</leafValues></_>
        <_>
          <internalNodes>
            0 -1 18 70199711 291184847 -536838013 -989626211 -1454669159
            41945217 -1037729576 -433355861</internalNodes>
          <leafValues>
            -9.8923504352569580e-01 6.4330697059631348e-01</leafValues></_></weakClassifiers></_>
    <!-- stage 18 -->
    <_>
      <maxWeakCount>2</maxWeakCount>
      <stageThreshold>-3.2413533329963684e-01</stageThreshold>
      <weakClassifiers>
        <_>
          <internalNodes>
            0 -1 24 -733903473 -1723825791 67659 -1056268194 -1610514005
            -267255552 -796075588 -335625071</internalNodes>
          <leafValues>
            -9.8876404762268066e-01 6.2295079231262207e-01</leafValues></_>
        <_>
          <internalNodes>
            0 -1 25 -1051733629 -1056857599 65730 -926924800 -2147376983
            8454144 -1979662191 -204756310</internalNodes>
          <leafValues>
            -9.4708615541458130e-01 6.8175971508026123e-01</leafValues></_></weakClassifiers></_>
    <!-- stage 19 -->
    <_>
      <maxWeakCount>2</maxWeakCount>
      <stageThreshold>-1.2839066982269287e-01</stageThreshold>
      <weakClassifiers>
        <_>
          <internalNodes>
            0 -1 13 1414106867 2144190860 218383429 -114620216
            -2127837155 -176155933 135374987 -121438195</internalNodes>
          <leafValues>
            -8.8177341222763062e-01 8.1443297863006592e-01</leafValues></_>
        <_>
          <internalNodes>
            0 -1 33 -749516143 -763292401 1360052309 2022572038
            -1878488960 138412096 -1068990456 -357981046</internalNodes>
          <leafValues>
            -9.4282364845275879e-01 7.5515991449356079e-01</leafValues></_></weakClassifiers></_></stages>
  <features>
    <_>
      <rect>
        0 0 3 5</rect></_>
    <_>
      <rect>
        0 0 4 3</rect></_>
    <_>
      <rect>
        0 0 5 2</rect></_>
    <_>
      <rect>
        0 0 5 3</rect></_>
    <_>
      <rect>
        0 1 3 4</rect></_>
    <_>
      <rect>
        0 3 3 4</rect></_>
    <_>
      <rect>
        0 7 4 3</rect></_>
    <_>
      <rect>
        0 7 5 3</rect></_>
    <_>
      <rect>
        1 0 2 5</rect></_>
    <_>
      <rect>
        1 0 3 3</rect></_>
    <_>
      <rect>
        1 0 5 5</rect></_>
    <_>
      <rect>
        1 3 3 2</rect></_>
    <_>
      <rect>
        1 5 3 2</rect></_>
    <_>
      <rect>
        1 6 4 3</rect></_>
    <_>
      <rect>
        1 7 4 3</rect></_>
    <_>
      <rect>
        2 6 3 3</rect></_>
    <_>
      <rect>
        2 7 3 2</rect></_>
    <_>
      <rect>
        2 7 4 3</rect></_>
    <_>
      <rect>
        3 1 2 3</rect></_>
    <_>
      <rect>
        3 8 4 2</rect></_>
    <_>
      <rect>
        4 7 4 3</rect></_>
    <_>
      <rect>
        5 1 2 2</rect></_>
    <_>
      <rect>
        5 4 1 1</rect></_>
    <_>
      <rect>
        7 0 3 3</rect></_>
    <_>
      <rect>
        7 0 3 4</rect></_>
    <_>
      <rect>
        7 2 1 1</rect></_>
    <_>
      <rect>
        7 3 3 4</rect></_>
    <_>
      <rect>
        7 4 2 4</rect></_>
    <_>
      <rect>
        7 5 3 2</rect></_>
    <_>
      <rect>
        7 5 3 3</rect></_>
    <_>
      <rect>
        7 6 2 2</rect></_>
    <_>
      <rect>
        8 0 1 3</rect></_>
    <_>
      <rect>
        8 1 2 5</rect></_>
    <_>
      <rect>
        10 9 1 2</rect></_></features></cascade>
</opencv_storage>
